/**
  ******************************************************************************
  * @file    network_data.c
  * @author  AST Embedded Analytics Research Platform
  * @date    2026-05-15T11:35:03+0000
  * @brief   AI Tool Automatic Code Generator for Embedded NN computing
  ******************************************************************************
  * Copyright (c) 2026 STMicroelectronics.
  * All rights reserved.
  *
  * This software is licensed under terms that can be found in the LICENSE file
  * in the root directory of this software component.
  * If no LICENSE file comes with this software, it is provided AS-IS.
  ******************************************************************************
  */

#include "network_data.h"
STAI_ALIGNED(8)
const uint64_t g_network_weights_array[439] = {
  0x18ecf80f0017e6f5U, 0xc30fdf8100f80cf8U, 0xe2fc3811c0f40bf8U, 0x705de9e7f00ccU,
  0x907fd00f515eff6U, 0x82804fee6e01781U, 0x81fb011a1311124bU, 0xe512f038fb33df5bU,
  0xe97f321581f258dfU, 0x21de2f1d325bfd37U, 0xf7e08135463281ecU, 0x51c38bee0b11c217U,
  0xe9e2fc0605d9d66eU, 0xba4ce405811733c4U, 0xd417f90901ec06f9U, 0xff0368108e60204U,
  0xf602fb0f000bU, 0xeefefb37811cf7U, 0xf050cee0d0f1015U, 0xb0fbf33b1fe1ec81U,
  0x3ff81b5e9d2f8d0U, 0xb316e925fd0a5169U, 0x238cd7f068e1efdU, 0x9f4fc201524ff18U,
  0xfc5fa35e25ec81daU, 0x8113dab75fdbd14fU, 0x71b01fc00fd3413U, 0xe581fd04f107040eU,
  0x5fb409f0fecf81f6U, 0xf7efb14731c509e3U, 0x15efebcc13fd00f7U, 0xfefed9da0d81f916U,
  0xf7fb02ffef09031eU, 0xf3f90206ed070281U, 0xdc81f1f4f00a0814U, 0xc5155340059481bcU,
  0xf512d7be2f9927edU, 0xff8d8e8fa12000aU, 0x5fc0325810ef7U, 0xf5fbf114f10ffc02U,
  0xdcf4f8aa9617d581U, 0xad547ff950c2e0fbU, 0xc91b0e2101ced4e3U, 0xc4054a81f3e40703U,
  0xb2329f1ba0918c2U, 0x15fd0c46d581c0f0U, 0x81d81117122a0537U, 0xd745fa1af44b2d0bU,
  0x7f18ccf609451e63U, 0x21e4dba7fce8810bU, 0xce40086635272dd2U, 0x2e3721350529fb62U,
  0xf4f5cf284c2681fcU, 0x37d63bc9efdbfce0U, 0x6e201e5f2f3ea7fU, 0xf57ff313bc1106cdU,
  0xe1d9f6e3ee07f813U, 0x81cfa75e4dd681ebU, 0xe8e3d5e0facdfeb3U, 0x656c0f0c9ed68ebU,
  0xe4ff96e238e5c820U, 0xd811fb39eac881bdU, 0x81b7d3ec050230d4U, 0xf6ebf519fefb0303U,
  0xf90581ff02e00fU, 0x7f91102040200f9U, 0xf3c981f4f0810701U, 0x6cf507b6df16f91aU,
  0x3100051124ff4d9eU, 0x5581f2e216fca8e2U, 0xf21638c7f4dfff3bU, 0xcdc7237fff0f09f3U,
  0x24e1fa971bc7001fU, 0xff04e5087fc03ad1U, 0x1212e602191e1000U, 0xc720dc1607b7f581U,
  0xd0f6deed81a7fbd4U, 0x1811c2100124f109U, 0x1746111181ecfbdcU, 0x183941441434fdecU,
  0x1dc2f55bf381e1U, 0x3c1ec6041acccf08U, 0xc91fd6dddf2b177fU, 0x897fd2159b181ad6U,
  0xdde013fa04dc1bedU, 0xfadd7f3746fb16ecU, 0xe51cf019fc0ffe05U, 0x16cf81341081fb0bU,
  0xebaac60e30fdcd0dU, 0x10f6e7daf2fab261U, 0xc5ecb90c81ae29c2U, 0xeeea21ebfbd781e9U,
  0xee69ffd911bb0012U, 0x3f25f382719df70U, 0x331e604780381f6U, 0x461829efacf7030cU,
  0xafdff06f2fa7f40U, 0xcc81f40318f210f8U, 0x2ef6d44a0130dc18U, 0x2d8198d509048112U,
  0xc8b0d41040b8d743U, 0xfed7e1d91783f6f3U, 0x2b2307fbd6f9edfaU, 0xbdcd1d7fa14e717fU,
  0x12090e83c9e05deU, 0x184a2bddf070f67aU, 0x1e48037ff0066fb1U, 0xebf28121ec2f485aU,
  0x805dc18d1501fb5U, 0x3524e7e415c61a0cU, 0xe522fa17fc191481U, 0xef981e6f2e3081cU,
  0xffffffbf00000028U, 0xfffffe4e0000000cU, 0xfffffe47fffffeddU, 0xfffffecbfffffdfcU,
  0x2c0000001bU, 0xffffffcfffffffedU, 0xffffffc7ffffffc8U, 0xffffffcb0000005aU,
  0x7ffffffc4U, 0xffffffec00000022U, 0x2100000035U, 0xffffff56ffffff42U,
  0xffffffde0000003cU, 0xfffffe7cffffff3cU, 0xfffffefeffffff65U, 0xffffff4bffffff22U,
  0x2dfffffee6U, 0xffffffa200000044U, 0x1fffffff4U, 0x8dffffffccU,
  0x7000000062U, 0x86ffffffc7U, 0xffffff2dffffff95U, 0xffffff7dffffff95U,
  0xffffffb40000003cU, 0xdffffff97U, 0xffffff11ffffffbeU, 0xfffffffd000000aeU,
  0xffffffc6fffffeb3U, 0x6800000038U, 0xffffffc9fffffef3U, 0xfffffff600000000U,
  0x2120d0c0c73ea4eU, 0x61b1ebedc34f4b18U, 0x33c37016073470eU, 0xfceb0ef108101526U,
  0xb307f3f1ae60401U, 0xd7dafdd4e16920d7U, 0x54d5eb0dbfde4abbU, 0xd704efe9c5ae0504U,
  0xd1fbfc7f2ad1d94U, 0xaae4b4e3ccb3dc00U, 0x18cccc0ba794e521U, 0xf412b019dfd2f810U,
  0xf22481c2e4f70802U, 0x90dbfdc00acfd03U, 0x9c0cb3fe2928d706U, 0x950df9d20605f3c0U,
  0xfe470bee080f3e07U, 0xaa08e2fc202c5f2U, 0x6726d34d0d1f1968U, 0xfef9b9f7d9cce524U,
  0xc4ef90efaeb7f54U, 0xef0fc0d1d51407ffU, 0x1afdeb63bf48f700U, 0xadd702f9ecfd0fe8U,
  0x1b0cf9f3f7f11729U, 0x10fc11f4091981c9U, 0xfcffb7f51909f114U, 0xf8f2e508cef10a95U,
  0x82d8291e2a1601f4U, 0x1f09cb010916c5d3U, 0x2ab4e5fd1a220792U, 0xe2d70004fe8bf236U,
  0xcf0253924f7f7f1U, 0x73fa1350b336a09bU, 0xda5d911a3b691fceU, 0x2b0448f5314c10a4U,
  0xfd97335e01f1f50eU, 0x31092b2ab57fca1aU, 0x2a04c127e411e9ecU, 0xf0241519b1ddc541U,
  0x331fdec405e427f3U, 0xd810be19ebfc94dcU, 0x9f1810af8d7d01aU, 0x71dd7f7e0a81fd1U,
  0xb21bd9d51b0f0b0aU, 0x1cffaced2bcef206U, 0x5fcdb180222ef08U, 0xc8d520e7fd030c05U,
  0xddf0ef09352cd252U, 0x310202f4fa32222dU, 0x92c151f4a4b2ae9U, 0xdbe50ae71cef242fU,
  0x1a2a7f4221081211U, 0xe3e8fab1db4502f4U, 0x2bc9f606d80833aeU, 0xe738e8e7eac21b08U,
  0xcfc5381834f5cc1aU, 0xd2ff2b2cfb030e1dU, 0xb31bf7d63cfa0a9fU, 0x32070123066e2feU,
  0x2fa0341001c781faU, 0x15146013f610f706U, 0x32fa25d3e8bded00U, 0x2fe0f8fc17ffd1d8U,
  0xe0eff2f7ff1cdf28U, 0xfdfc12f8351f7f2cU, 0xf21045022d2b30faU, 0xbcc218e105fb2360U,
  0x6815040cf82efdf8U, 0xbf0b11482a29deU, 0x13fafb002f070719U, 0xa0ed1eb380411e6U,
  0x6cc1926e3111d09U, 0xf621321603e8e5dfU, 0xabdeedaa2404ecf1U, 0xf9f7230f030803e5U,
  0xaad12e3fe2a81ffU, 0x2a0d1c3504ddec13U, 0x300622b315fdf90bU, 0x381316fd2ef71227U,
  0xb707d620e04cde0dU, 0xcd1f7d6fb006a58U, 0xfef67ffdf7214a01U, 0xc89a12e019221856U,
  0x6c2a0d0df7c6fd0eU, 0xb3a821e4ed1a49c5U, 0x1710f111d2f53b0bU, 0x1a0803cbe4e423ccU,
  0x13e03cf36f22310U, 0xfed7d407e02f0026U, 0x743af13ce82d2976U, 0xf0fe0311f60529U,
  0x23582c2effde7f5bU, 0xeaf3fde8051510f8U, 0x902ce37d81c0001U, 0xdf0c09d9c20720dcU,
  0x1bf504e92221fb7fU, 0x2c183f034523a5c7U, 0xe1b9ff22e121213U, 0x40a04eaf8d231b5U,
  0xbaff7c1f4d3f0103U, 0x12e5d5e1333fc8e7U, 0x38c22b0801f637d4U, 0x220280a1b923f68U,
  0xf103eb26e4d30c81U, 0xc4e60319f4d746f6U, 0xfbe82508c0abb0feU, 0x200d0735f2030347U,
  0x3a0a88eda5bd0807U, 0xf31ede0905db463cU, 0xaf3e04fcfa03023aU, 0xf9000edeed661ea9U,
  0xef0cf809e060a70eU, 0xfddc2a07fdfe7461U, 0x13127f02213d3af9U, 0xd3c834ccf9fbf95eU,
  0x39102b19ddee06f5U, 0xc5d548e3db121e9fU, 0x2c150d03e3e61e0aU, 0xd205d1000b0afbbdU,
  0xfbd12121cdf2bedfU, 0xf614441c15f5f5b7U, 0x94cdf09aeeebdd81U, 0x40e3eff0930e0ecU,
  0x9b1eddad3de85d0U, 0x80625fbea09f800U, 0xf00cfeaafec2f80aU, 0x3f15f9eb04ff05e7U,
  0xcb0c4222f8c0be09U, 0x50b3efc29da11ccU, 0xc4f20badcdf5d88eU, 0xe0d2123032febeeU,
  0x1df1ddf1fff48105U, 0xdff0ed20c4ec0801U, 0xdd0b1bcfe7c9dcf5U, 0x2f0623ff2c14d7eeU,
  0x2ec6fdd9c1442529U, 0x92af6b22d377d3aU, 0xfcf53dee17025006U, 0xaa9ad4ffe21a236cU,
  0x7f12fe1e3539fe06U, 0xfee2fb1917dd65e7U, 0x2ce708ec2720ff35U, 0x3238cbd13ade3313U,
  0xdbd6bcfffef86840U, 0x3ccdf0c8610fd930U, 0xbf28b6e1200f05d8U, 0x23a0300e2c1f3708U,
  0xd393d6467124cedaU, 0x3908e4207f0cd139U, 0x53a9f4da121d23ffU, 0x582c032a56b32244U,
  0xb8fd2d540626ccf6U, 0xf40b361ff2296372U, 0xff237ffb1c3b450aU, 0xf3ef27ee3a0d094aU,
  0x6afe1817fcff05f4U, 0xf1f33ce5ce3e1ef6U, 0x706f0f4f8eb1109U, 0xfe0207f41a0ae9e3U,
  0x28bb433c0af40934U, 0xff49561929f4cfc1U, 0xa1c6109940bf1bc9U, 0x10efb1a082d05f4U,
  0xdfedfdc70f2281ddU, 0x2a01f46038e50c0cU, 0x47f834b20a09edecU, 0x700903204b061037U,
  0x8012424f2d4f28aU, 0xccec130816b707d8U, 0xae3ecf9ab9eae07U, 0x4113f438ff18c809U,
  0x240281dcc4e4fdf2U, 0xfa2e03f1f7b34326U, 0xa04f030806ffe12eU, 0x6e8021a2c69fabbU,
  0x1e28e9ce01c74be2U, 0xd4c9a919e0fb94d9U, 0x24088112eadbc224U, 0xe02cd09d4b5fcc8U,
  0xb521f3f5efe90225U, 0x3414a8db02fdf109U, 0xf003b41add170501U, 0xa8e82af7d0f8e706U,
  0x9bdf3d780a32b63aU, 0x29192611ed2c7c35U, 0xf42661f61e1f60ffU, 0xdbfc7ff754541c4aU,
  0x4b260a3004dafefeU, 0xce0568f7b8063febU, 0x307290defd4f010U, 0x25120a02190e11d3U,
  0x1524e51be0b406abU, 0xe404181debd6b7acU, 0xbf2cff19de0991fU, 0x4255273a0ff1f6b0U,
  0x2fb8103e7c81d30U, 0xdc691111ded53925U, 0x8c4a0bfddf0ce57eU, 0xf0f616e12a630cafU,
  0x132314e228e20af8U, 0xfc4f627e02b99eeU, 0x1afc9b03fb11fd0eU, 0x2213c80aedd1edb4U,
  0x81dffb060af00407U, 0x827d6f0fdfbb7d3U, 0x26d104fcd21303aaU, 0xd2edf4fbe1c6ed2fU,
  0xd6c10b2600e1dcfaU, 0xe22932fa13edeff6U, 0xcf170dcde609ea9dU, 0x14f90cf8170ee6ccU,
  0x13aae3efd80481d6U, 0x160e02fedd16fa00U, 0xde0703c3e2ea0306U, 0x2415060d1e04e1ebU,
  0x10e21623e2010f00U, 0xe847320837d5d4e2U, 0x91f9ed8122daf6e2U, 0x1fd0cf6fc3dfcf2U,
  0x4c505d92c1783e7U, 0xb0b142f1cddfdfdU, 0x2eff3ea420eae4feU, 0x5a1f140024052f4dU,
  0x2d12ecfdf6e30b1cU, 0x409e00b1200a0d7U, 0xf81aa2fc17f4f402U, 0xee8c7f2d2e204b7U,
  0xb5d2060f23160006U, 0x1103dd0918029ddbU, 0x481ecfcfc0c099eU, 0xdfff9d715d3fe16U,
  0xfaf710e4e64b0463U, 0x172a450043377c57U, 0xc0b69016e5f7f0dU, 0xf7012cf126ee4043U,
  0x7d2a6a4221030702U, 0xe0d909241228fbceU, 0x5c0411ff3f051805U, 0x464408f817c42e2eU,
  0xe109fc37fbddf781U, 0x9fee231904ad10eaU, 0xffdedafed894df08U, 0x381e282dedf904faU,
  0x350f97cbb2ce040cU, 0xc2b002cd5a93a44U, 0xa05511fde70add42U, 0xf9f1fd150f74eae7U,
  0x300901db0efa271eU, 0xfc1920ed15dfb9c9U, 0xf9f8b8021f0af1feU, 0x22f0ded7fce30db4U,
  0x9ec912f51e29feffU, 0x2efcd1f10815b1e7U, 0x24810afaf5120f96U, 0x1f0407e9f6cc042bU,
  0x336ffffff5fU, 0x29200000647U, 0x5acfffffe29U, 0xfffffeecfffffe85U,
  0x142fffffc4cU, 0x4fcfffffca8U, 0x38d00000273U, 0x16fffffa58U,
  0x42fffffe19U, 0xfffffc56fffff9feU, 0x364000003ccU, 0xfffff9f200000559U,
  0x3b300000904U, 0x1e0fffffe5eU, 0xfffffffc00000390U, 0x37900000344U,
  0xffa811d447a2fb8cU, 0xdfe5ad359ac34d19U, 0xdc86ec17c04a5005U, 0x50d63d5e4f0081b6U,
  0x24cbcb1cdc81cad7U, 0x2efb1e0fa5e642ccU, 0xfa036122806f036U, 0xe3611cd364ec72eU,
  0x93d22dccb429639eU, 0x91d91da715b2ebb6U, 0xbf3332bfd3fbe9faU, 0xc73681c1bdc20a2bU,
  0xde3923464e39ce37U, 0xc8cf8132199ac1a6U, 0xc2448c8febc6b728U, 0x588f116bb3086501U,
  0x16328114e1258632U, 0xd162dd131461f644U, 0x22c7ccc7481a1ee1U, 0xb3cd259ce5e9e2a0U,
  0xfffffe24fffffeaeU, 0x23900000186U, 0xfffffd7dU,
};


